[]
[UNK]
[START]
[END]
[
]
m
n
u
а
б
в
г
д
е
ж
з
и
к
л
м
н
о
п
р
с
т
у
ф
х
ц
ч
ш
щ
ъ
ы
ь
э
ю
я
не
на
что
он
##а
но
##и
как
его
то
это
из
все
##е
ты
они
по
за
##м
она
от
так
##у
##ся
было
же
бы
##ом
их
когда
еще
если
ее
мы
был
##о
только
##ы
чтобы
мне
##х
уже
##сь
##ми
ему
ни
меня
до
сказал
чем
даже
да
##я
##ов
для
кто
нет
или
него
вы
может
##т
теперь
тебя
##н
под
##ю
были
вот
там
где
здесь
тебе
себя
##го
##ки
ли
них
была
потом
время
раз
ничего
больше
##л
глаза
будет
нас
того
со
во
быть
##ка
очень
ним
##ла
тут
этого
им
##ли
один
через
сеичас
есть
пока
этот
##ь
##ось
##ои
##на
##ные
снова
словно
тоже
над
##р
ну
себе
этом
##к
лишь
##ным
##ныи
тогда
нам
ранд
##сть
##ных
том
просто
без
##сти
перед
##ет
свои
мог
наинив
##в
##ть
##ку
потому
тот
можно
еи
почему
ведь
##но
хотя
##ны
##ась
надо
##ная
всех
сам
после
будто
руки
##ок
почти
##с
##нои
которыи
несколько
вас
##ить
лицо
нее
тем
##ая
##ись
знаю
нибудь
##ную
всего
об
##ил
никто
неи
мои
никогда
куда
фродо
##ами
##те
эти
вдруг
голову
##ал
наконец
при
бильбо
слишком
##ем
чего
голос
спросил
которые
##ит
руку
эгвеин
##ного
уж
однако
совсем
дело
##ке
вокруг
саимон
слова
много
быстро
##д
более
ответил
вам
казалось
собои
лучше
такои
##ать
люди
рядом
##ыи
головои
хорошо
ними
вперед
##не
##ло
видел
##ра
знал
должен
##ую
конечно
##та
фолко
##ые
тех
гэндальф
людеи
##ком
меч
между
день
##ых
всегда
оно
##цы
##еи
##ах
какои
свою
нужно
##му
человек
илэин
стал
своих
своеи
чуть
##ым
этои
вместе
свет
сказать
сказала
назад
времени
##ен
##ого
дальше
вновь
король
хоть
##ам
друг
значит
##ну
два
##ия
могу
##нул
взгляд
медленно
всем
##ными
сразу
##шись
понял
##г
##да
##ии
берен
путь
сторону
##ное
##ешь
##ца
##ин
едва
такое
долго
своего
кого
прямо
седаи
хотел
те
##кои
затем
##ел
##вал
кроме
точно
три
тому
другои
мэт
ноги
##шии
говорил
увидел
##нее
немного
пусть
нем
хоббит
именно
сюда
##ят
##ном
##ют
##ое
прежде
аиз
туда
среди
перрин
мореин
##али
##ник
сделать
лет
эта
мир
##ился
место
силы
стало
##шь
этим
делать
##или
своим
эльфы
##им
##ни
##шие
##лся
эту
##ших
##вать
##ие
нему
этих
которои
девушка
вниз
сэм
##ние
тихо
жизнь
заметил
разве
свое
одна
идти
##ков
##са
##ство
правда
##щии
нельзя
земли
пути
далеко
##ты
твои
давно
тобои
которых
поднял
одного
откуда
глаз
вообще
мало
знаешь
землю
которого
знает
ночь
весь
стены
дверь
самом
раньше
эльфов
короля
думаю
жизни
подумал
сквозь
##неи
##ских
мнои
пор
должны
##ила
равно
##скои
##стью
начал
рукои
зачем
##ться
стороны
хочу
солнце
стоял
похоже
сердце
другие
кольцо
которая
кивнул
##нуть
##ан
стали
##шеи
самого
кое
##ль
##га
опять
сколько
каждыи
геральт
сделал
думал
таким
##ко
придется
могли
##ва
месте
одно
кажется
лица
глазами
однои
ранда
##ц
##ились
возможно
против
торин
знать
##ками
говорить
##нии
произнес
поэтому
смотрел
##з
могла
внезапно
дня
глядя
##ает
какие
какое
либо
##тся
##шего
##ства
друга
наверное
деиствительно
которую
таки
##щие
##нные
##ские
гном
##кая
##ыми
мира
##ги
##ясь
##он
##ение
##ры
мысли
##лись
случае
##ется
женщина
ветер
иначе
##иться
камень
такие
##ор
отряд
##ец
##п
мгновение
совершенно
##ели
гномы
дома
скоро
стоит
руками
хотелось
##ала
могут
про
##нныи
##шим
слышал
впереди
воды
##нет
##ру
посмотрел
пришлось
человека
горы
##чно
две
других
##шая
места
вовсе
##щая
##ду
##ту
силу
тени
##цев
глазах
моя
##жу
##щеи
та
##ле
сегодня
##ив
деле
конце
воины
достаточно
имя
миг
всю
спокоино
сама
двух
тело
хочешь
руках
##скии
##э
земле
какая
##ают
##лась
впрочем
сил
будут
кровь
вверх
##ча
##ится
##ре
неожиданно
##шки
сами
волосы
##чки
##нув
##ина
скорее
джошуа
мере
огонь
хоббита
самое
##ения
буду
##илась
вздохнул
##щих
улыбнулся
##ял
такого
##б
отец
вскоре
остальные
можешь
воздух
##ня
##ут
удалось
взглядом
повернулся
двери
решил
##чные
##ню
меньше
прежнему
небо
нами
наити
каким
##вали
##шка
эльф
почувствовал
##чи
##ния
гномов
дорогу
которое
##ника
видно
##ще
самои
##ию
молча
кому
##ев
##ники
первыи
пришел
сила
столь
тои
дела
света
##ти
##аи
город
мимо
##щим
самыи
друзья
ко
сын
бинабик
##же
понять
успел
этому
плащ
женщины
леса
ибо
резко
должно
большои
юноша
арагорн
оказался
##вая
ответ
##ников
##кии
менее
##ер
многие
орки
стояли
взял
последнии
головы
оружие
виду
встал
продолжал
часть
##бы
говорят
чувствовал
осталось
шли
##ции
##ите
##ского
слово
ночи
мире
ночью
##де
вроде
спинои
##ик
##чал
будем
своем
случилось
трудом
руке
##щего
мое
народ
##ями
днеи
лорд
##ри
##ма
##чь
уверен
иногда
наши
покачал
дороге
тьмы
##во
видеть
тень
отсюда
легко
##ления
вполне
смерти
##ким
свете
силои
##нных
воскликнул
##ление
##ски
обратно
реиневан
хоббиты
##чныи
некоторые
##ятся
момент
##жение
##ья
смерть
лес
образом
смог
гор
рука
черные
##дать
##гу
верно
башни
##ела
второи
помочь
страх
мириэль
говорит
дом
позади
сначала
показалось
##чка
мерри
мысль
##дил
ведьмак
##шихся
особенно
рот
##кие
##ью
ладно
##ному
лице
поднялся
губы
осторожно
господин
##вои
внимания
такк
##ч
##вы
##ках
##ена
сидел
своими
такая
##цу
шел
##вшись
##ди
будь
черныи
должна
таких
плечами
вдоль
##чеи
взглянул
##ды
##ба
цири
##ницы
##жи
##ье
проговорил
упал
также
##нула
крови
деревьев
##ля
сильно
старик
некоторое
голосом
пар
ясно
крикнул
груди
столько
##чить
довольно
##ул
вернулся
остановился
пошел
##кнул
стала
манвэ
наш
##аться
одну
##чать
принц
##еть
явно
известно
орков
##чных
думать
следует
несмотря
наверняка
##вшии
реки
камни
пытаясь
другого
помощь
возле
мин
часто
##дал
коня
лицом
##щую
вместо
##бить
увидеть
##лу
вопрос
слегка
##ир
ближе
понимаю
воина
города
начала
прав
видели
удар
голова
шаг
##лен
брин
никаких
оба
##ха
час
##ющии
дорога
вода
нечто
котором
трудно
дороги
малыш
пиппин
оказались
которым
говорили
краинеи
кем
конец
##нем
идет
##шее
воинов
никак
выше
##вает
##шую
стене
##су
##ская
никого
колени
вид
ворота
ждать
знала
рен
##чии
двое
врага
конца
неужели
##ять
##сы
гарав
хочет
ради
##вала
странно
узнать
спросила
хозяин
плечо
##ались
##ву
##пал
будешь
##чку
воду
голове
концов
##ине
##ишь
глубоко
нашел
тяжело
мастер
прочь
воздухе
берегу
боль
другом
любои
настолько
##ении
четыре
можем
##ша
моеи
маленькии
пальцы
юг
старыи
##том
одним
пожалуи
##ек
жить
подошел
вся
суан
##стве
меча
ту
рук
##яли
услышал
маг
вслед
##жения
##че
вряд
мечом
усмехнулся
вами
земля
##она
##ши
бросил
##ща
вижу
##ленныи
##ница
дракона
своему
слов
сон
##ров
num
восток
хуже
другое
##жныи
готов
##ющих
узнал
пришли
пол
ворот
могло
##лыи
оказалось
##ннои
север
##щу
##них
##тои
думаешь
##енныи
лошадеи
##нным
пытался
##ющие
горлум
чему
женщин
##ются
##ался
деревья
камня
стараясь
голоса
насколько
стояла
##стеи
мужчина
гили
##ар
моргон
какую
солнца
дракон
##ило
всему
убить
##чным
дни
моего
остался
уити
никакого
лежал
##ским
знали
амерлин
##жал
твоя
никому
взять
##шиися
внимательно
##нно
всеи
##жении
вернуться
##чнои
зубы
имеет
ног
обычно
##за
станет
страха
##льно
вышел
##нию
##ге
##чу
другим
##лы
##ора
##шиеся
пробормотал
##вшие
внутри
##ень
сильнее
темноте
##дои
##чного
наших
нос
черных
##чная
##ст
##шек
трех
##ину
##ности
друзеи
начали
плечи
##жные
быстрее
громко
##рин
##ложил
##рон
около
##нал
уриэль
##ве
##вался
шагов
отца
##кую
пора
хватит
##емся
стать
запад
чтоб
саурон
##лом
пламя
##чали
гораздо
##жен
##ких
боли
##ания
##жно
##тыи
##чил
##нут
мириамель
поздно
лютиэн
оставалось
спину
##ому
##се
##нного
дыхание
##чая
##зы
##щем
первым
##нное
понимал
смотрели
##шку
невозможно
перри
говоря
ногами
средиземье
внизу
пожал
последние
стрелы
тела
##ском
гимли
дать
девушки
оттуда
произошло
пять
видела
интересно
моему
мужчины
мать
огня
знак
##щее
##овои
видимо
прошептал
##бу
протянул
дал
язык
брат
##няя
смотреть
бежать
##ром
темные
##ель
##ях
саимона
пошли
голосе
##ившись
##пил
впервые
самых
лесу
попытался
ушел
краю
чернои
плохо
##жным
##гал
##нная
зло
##ело
десять
кольца
народа
##лении
нечего
##енные
сих
##ины
ветра
искать
море
разговор
##ол
##ало
##ж
##женные
мэта
##рои
близко
##женныи
##жных
уолкер
лицу
самым
воин
боюсь
авиенда
минуту
обо
согласился
##жет
твое
##лю
остальных
сможет
##чен
ал
крепко
исчез
клинок
внимание
остались
##ельно
спать
##ция
говорила
завтра
госпожа
заговорил
многое
##жил
помощи
##ш
постепенно
угодно
##нулся
враг
##ика
стол
башне
трое
##ается
##ости
открыл
скажи
саруман
##дя
звук
##лет
##ленные
##жа
балин
темного
##бил
стороне
лошади
одном
прошу
сел
всадники
морган
ничто
вещи
серыи
##ешься
##ф
##ше
##нь
##овал
##овать
##аются
хотела
##лин
темно
##рь
удастся
весьма
стену
оказалась
##вших
высоко
##чит
##дить
##кал
##вести
однажды
прошло
##ское
##шу
великии
туман
утром
речь
врагов
##це
принцесса
говорю
дух
леди
увидели
домои
появился
водои
##ством
комнату
забыл
твоеи
ка
платье
##зу
##лось
закричал
надеюсь
тысячи
воиско
бреман
##ание
моих
навстречу
добавил
какого
лан
нужен
бои
##енно
сторон
##шегося
ситхи
происходит
ранду
юниэр
##скую
##зил
лютик
силах
детеи
нескольких
##очки
##чение
даваи
самые
камнеи
##вались
##шке
сотни
зал
года
стен
запах
##эль
##ваться
##гать
раздался
##кам
кстати
год
##мы
звезды
магии
##от
##юсь
одновременно
последнее
##ним
##жки
##рил
поскольку
##нки
вспомнил
души
вести
имени
конеи
края
##аю
вил
такую
удивился
##кое
##шими
кости
иеннифэр
алланон
хоббитов
всадников
##жит
новые
магия
##ро
##яя
обернулся
##ана
поняла
скажу
##ляться
##ницу
##ялся
приходилось
лагерь
ответила
полу
солдат
опасности
страшно
возможность
дочь
##нную
поидем
##него
##чет
##мо
##жать
временем
годы
##ме
##бно
##вен
светом
другу
множество
пони
тар
воиска
гнома
всяком
##чную
##вом
##тал
##есь
##яет
##ость
##чество
бывает
##ющим
##сно
##ствия
##чие
крик
##вел
власть
пожалуиста
##вают
##рал
##ченныи
##леи
##тые
холма
времена
никакои
следующии
придет
темныи
##жали
##лены
грудь
фэили
лошадь
##бе
##ником
копья
нож
поле
еле
перрина
##жат
крики
##чения
комнате
подумать
ждет
слезы
ударил
##пу
гэндальфа
имел
##ики
берег
##ися
нашего
виде
##еля
##лым
##овые
##тил
ждал
##пить
положил
##рел
ужас
прекрасно
высокии
разумеется
существо
башню
судя
понимаешь
вероятно
власти
замок
##жнее
кровью
память
##нули
сидели
берена
##ялись
гален
утро
причем
видишь
ваши
##ждение
##вые
белыи
дерево
тишина
##дет
##илось
крепости
шеа
знают
улыбнулась
приказал
немедленно
##кими
##очек
самому
##алась
##ион
хоббиту
мальчик
##их
смотрела
повторил
ладони
молодои
холодно
##ложить
##рад
большая
казался
полностью
##ность
вскочил
вон
пламени
##шем
горло
сссра
##пи
снег
##нюю
##чке
мужчин
##выи
##ска
звуки
опустил
##ям
пару
прошел
сне
увидев
армии
порои
черного
тэи
дети
пришла
нашли
лук
спасибо
получил
совет
##жнои
добраться
остаться
##ченные
жаль
зато
##вание
##лять
ваш
словами
краи
задумчиво
прошли
##ствовать
всеми
каких
рог
таком
памяти
##лые
##рот
тьма
##валась
белои
судьба
##елеи
##щения
каждого
##итель
берега
правильно
следом
следы
кинжал
##чное
говоришь
##жая
##хи
уши
дерева
топор
##гов
вопросы
многих
##очку
бросился
##щими
помню
##гая
другую
шум
поговорить
хочется
права
тролль
бергитте
знаете
цвета
##ленным
##пел
движение
капитан
##летел
##нулась
отряда
##тель
длинные
обе
леголас
финрод
дождь
рассмеялся
костра
помощью
спине
двумя
проити
промолвила
##инои
##яла
сумел
##ратить
владыка
части
##нку
##ющеи
сделали
##ат
широко
нашеи
черная
ими
одни
одному
могидин
##дом
главное
##дила
обратился
позже
спустя
##па
брата
##ительно
##ста
боя
мелькор
мечи
воде
этими
##бился
##тельно
маиа
существа
подумала
людям
нравится
решение
##сов
кивнула
смогу
##нил
немало
заметила
ниже
мою
приказ
битвы
ваше
##дно
##цами
сердца
третии
##рок
##чик
остановились
принял
держал
поспешно
##нес
крепость
девушку
саурона
двадцать
минут
##ливо
останется
лестнице
подальше
##цию
##чался
великого
принялся
твоего
улыбка
эи
исчезли
людьми
окна
опасность
ах
пальцами
##лых
важно
##док
##рет
комнаты
чувство
##нувшись
правду
##вил
##ющего
парень
##ск
вышли
долину
оставил
делает
миль
##шенныи
##щение
необходимо
эльфа
птицы
изгримнур
можете
нужна
знаем
огромныи
шею
иди
оказаться
##лем
жив
истории
схватил
##чались
которому
##тов
вечером
##чив
королем
скалы
хозяина
##аны
##ляя
##тить
##ывать
мгновенно
молчал
стоило
отправился
случаи
##рт
появились
рад
##шал
мягко
стрела
##итесь
идем
королева
##ниц
больно
новыи
ушли
доме
оставить
ума
иметь
##бежал
##вшего
легче
находится
честь
языке
##уя
наша
##ены
##тным
##сным
башня
##жку
сделала
##енных
##ехали
##жены
моргеиз
небе
##пустить
##тая
##шен
ладонь
большинство
огнем
эовин
##аясь
##сил
##ху
##ящие
озера
##ред
##лялся
##ству
##то
##нять
белые
держать
гилдор
вина
государь
решили
собирался
##нов
##овых
большую
городе
зале
проворчал
##ера
##мер
##нными
##шеися
принять
убил
фигура
хотите
заклинание
##нести
##ящии
конь
ощутил
глава
моря
сверху
##кинул
##пали
реке
##тныи
казались
старался
возможности
##нице
##дь
пара
потерял
##тные
##чья
князь
шла
##мон
##шит
постоянно
##сныи
мрачно
брови
редко
желание
посмотреть
твоих
##рился
молчание
олмер
путники
друид
сторонам
##еннои
##чала
изо
##кать
##уть
##ств
##шно
днем
песни
##лал
##стые
верин
возразил
увидела
эинор
##ственно
##цов
лоиал
собственнои
##аешь
##тки
поклонился
##кого
##оса
##рать
##жим
##ьныи
аия
неподалеку
повелитель
стола
большие
двинулся
навсегда
##ствовал
говори
душе
обязательно
##кала
которыми
например
понятно
заставил
минас
##кому
армия
душу
долины
некогда
##шить
коттон
##цам
тотчас
##дания
ощущение
##шения
враги
рассказал
севера
такими
хэмфаст
наверх
живых
##чим
моим
ничем
умер
##жав
##ица
##нка
мост
длинныи
недавно
джирики
##ящего
заметно
зная
первои
сеи
илльо
надежда
одежду
##ждения
право
часов
копье
##ток
появилась
лежали
##ваю
вернулись
рода
начало
река
##ицы
##рам
##стно
зовут
отозвался
##дка
##ывал
небольшои
хотели
##ее
##кали
##ением
##чили
##ящих
ногах
промолвил
##ляет
итак
остается
сознание
ужаса
##дим
книги
##пои
##дел
солдаты
уничтожить
##скочил
выражение
исчезла
костер
твердо
##утся
##шему
аллор
гондора
остановить
первых
повсюду
##лои
##шать
большим
вошел
модру
ответа
успели
##цем
лиане
очередь
темных
##щи
ею
огромные
разглядеть
обнаружил
помнил
##роны
##скими
засмеялся
сына
##лок
нужны
порядке
странное
##лив
##рн
пришло
санделло
тьме
##ходил
всякии
рыцарь
##пая
джаир
дорогои
##тать
тысяч
##ис
##чился
##ехал
##ждать
другая
первого
бежали
заставить
склону
##иона
##крыв
ногу
двинулись
двор
круг
##шение
старого
##сом
##ческие
взгляда
##шил
##зила
##вается
воздуха
зубами
шарлеи
вздрогнул
лежит
взор
невольно
##пы
подобно
##ступить
рано
##чек
выбор
провел
считать
цели
востоке
##водил
##никами
думала
оружия
горах
##жает
принца
##бки
заявил
королю
сказали
##дешь
внутрь
делал
##тка
дам
зла
подняла
состоянии
шесть
##ими
##чном
коротко
##рали
пещеры
##тных
выглядел
следовало
##нить
##тно
деорнот
долине
сзади
центре
##шел
вел
замка
неба
считал
##ити
##рона
единственныи
общем
оставаться
высокие
разом
фарамир
##ган
вечер
мрак
##сные
воину
использовать
прости
##алось
горе
идут
стена
вздохнула
устал
##лял
##ун
##ывая
золотои
осталась
след
удара
бок
гнев
показал
посмотрела
ожидал
олмера
патрел
рассказать
произнесла
##мои
##рен
##чики
реку
спасти
аиильцы
боялся
указал
чаще
##щик
отыскать
запада
холмов
часа
##шали
торопливо
##од
несомненно
повернул
##стыи
темнои
##ваи
##шаяся
сражаться
зала
напротив
первые
##стями
огир
само
##ленных
##лов
##нах
##тянул
даннер
надежды
поиду
##чает
вчера
семь
вначале
готовы
коридор
направлять
##пать
способ
##леннои
корабль
поидет
##зал
вечно
##има
женщину
##анные
##дем
историю
очевидно
##дку
носом
стрелу
##жие
отчаянно
теоден
##нами
##держал
##ставил
##нями
великои
стоять
другому
стража
##ающии
жили
мудрости
человеком
##пор
##ящеи
имею
матери
махнул
тел
холод
##гла
##тя
верхом
черным
##ании
окончательно
продолжала
слева
сто
##ря
##тых
рохана
##ока
бежал
верить
вытащил
зря
##нок
##рался
каждои
улыбкои
##дает
друидов
##женных
##идя
##енным
##ием
##ище
отправиться
странные
##ждал
##очка
##жная
послал
ярко
ждали
##зывает
##эт
поити
хватало
##крыты
##лил
##сны
видит
вождь
лиандрин
шее
погиб
##жии
##нял
дар
коленях
лоб
лорелин
пояс
##дки
пес
рассказ
##вания
##ете
##шимся
единого
жил
казалась
местах
##бок
седле
##водя
##дание
дым
ущелье
##ходили
##чок
опустился
разу
страны
##бираться
галадриэль
##зился
заметили
олорин
удивленно
##рах
получить
способен
##еду
##бои
##ровать
##ушки
##шуюся
принес
##лить
верю
посох
проснулся
страж
шагнул
замер
повернулась
поможет
спал
##фа
поднялась
твою
лежала
любого
пристально
рэдерле
смотри
##нуться
##шееся
##держать
##ира
план
твари
амбель
впрямь
девы
любовь
мории
ярл
##жка
выити
отправились
кинсон
ох
фередир
##бор
##оте
##щиеся
брегга
##пустил
лорда
нахмурился
##биться
##ота
##щему
слухи
холодныи
##ав
##того
##шнии
велел
##жала
##нулись
воли
каждым
столом
##жился
##имся
##нение
##стить
##ула
девочка
раны
севере
спросить
четырех
##жную
##зывая
##кла
скажешь
бою
поверить
разные
чувства
##гали
##дился
ответить
самая
##иком
буги
представить
сны
##би
##рак
##шло
глубине
ряды
слышала
тьму
эру
пальцем
смех
##лению
##тали
##кнулся
##пились
вправду
живет
стану
хурин
##зывал
работы
сна
##ческии
двигаться
оставался
повел
поля
сидеть
вершине
живут
попал
смысл
##ьца
##ходит
##чено
##чены
##шкои
каменные
колл
оглянулся
решительно
ярости
##вых
##лую
##сить
##ьно
##ящим
##ваясь
вернется
забыть
футов
оставив
саимону
##гнуть
##зно
##яться
ирмо
рассказывал
слуги
слышали
средиземья
убивать
##женнои
##ог
##пала
##тан
##ушка
видом
обоих
предложил
##емыи
##ивая
##ческих
приходится
сомнения
травы
шагом
##рода
##теи
##ющая
фигуры
история
наклонился
##зать
волю
направился
неизвестно
проговорила
##оты
##рыи
##шенные
##ься
битва
вождя
моргота
седла
##жного
##тва
волос
коли
разум
служить
землеи
судьбы
##мар
горец
даи
услышать
ким
мешок
рукоять
##дали
##иль
ваша
поближе
##бныи
##чем
безопасности
уходить
благодаря
времен
стенои
даваите
дважды
люка
тщательно
серые
##крывая
##чком
земель
люблю
маленькие
работа
решила
##рим
низко
примерно
##гои
##рем
##чат
темноты
##чего
##цом
воротам
герцог
меж
работу
стражи
посреди
продолжил
справа
твоему
##вало
##жить
##чными
поиски
стрел
белых
вернуть
воле
##чел
деревни
дитя
кони
покои
постели
старика
битве
движением
каком
поднялись
поток
случаино
целыи
##уют
движения
достал
ехали
##дывая
##жением
##тым
вершины
орк
самую
существует
##зились
##ску
братья
прервал
чувствую
##били
##кнула
##овым
##ющее
всадник
граф
совета
##вым
##дор
##уки
луна
тучи
умереть
##ман
дыма
западе
рога
##ад
опасно
утра
##зли
##ствии
##ует
##шным
##яю
вещь
оружием
уверена
##щении
подняться
пространство
снаружи
стенами
##чества
вашего
вошли
королевства
минуты
ха
##лот
отчего
получилось
##ата
одежда
пыль
слушать
цель
##скому
пытались
##зывать
##нке
белого
подножия
правитель
темноту
##ант
##гнать
##дывать
##рина
##ум
ведет
взглянула
любил
удавалось
##ено
лагеря
наше
уставился
чародеи
чудовище
##женным
##лел
##никам
надеялся
эмис
деньги
думает
##жили
##чивая
##щ
##дили
ход
##брал
##ова
##пешно
##сал
##сия
воспоминания
почтенныи
эльфиискии
##валился
вино
каменнои
покачала
##чко
##чьи
белая
деревьями
колено
становилось
становится
##жешь
##зкие
##рая
взгляды
волки
добрыи
ланфир
неподвижно
окажется
отдохнуть
последним
чувствуя
##водить
##дят
гнева
дали
негромко
слышно
черными
##нать
##рились
##ченно
##шься
поняли
серьезно
слуг
холмы
##лился
##рилась
белым
высокои
речи
слушал
##ес
##чье
сидела
воине
де
объяснить
похож
##вии
##деть
звучал
наружу
насчет
##ишься
##шает
врата
жизнью
закрыл
золотом
последнеи
секунду
стенах
##гает
##дит
##ывает
сердито
##ечь
##сных
глупо
хотят
эльфами
##ивал
##иду
##нят
##рд
##чих
боромир
ветру
##ствует
##ченным
двигались
юге
##дные
##елем
##енная
##лать
##лялись
##нился
тумана
##нется
полнои
послышался
##рно
домов
одежды
уно
##ающих
##гом
##енного
держа
живои
магиеи
случится
эльдин
##ас
нового
остатки
последнего
##гами
горели
элиас
##ленная
##рым
собрались
##крыть
перестал
пи
подошли
приятно
удержать
воля
встать
##дала
##тесь
большого
мальчишка
##щать
##яло
слушаи
упала
##ровал
душа
мертв
противника
толпа
##довать
##ьных
намного
отвернулся
отдал
палец
радости
рогволд
элронд
камнем
название
никуда
четверо
##ающие
##крытые
##ницеи
##стал
##тит
встречи
##ждали
##хода
##юще
почувствовала
сжал
##гнул
##эр
словах
##крыл
##щихся
дамсон
красныи
странныи
тварь
жестом
закончил
лапы
раза
##бом
бывало
возвращаться
слабо
тяжелыи
##жеи
##рна
##рос
замолчал
касается
тихонько
##идем
##нда
долг
задумался
словом
мраке
называли
порядок
привел
##ниться
##чалась
##ену
##нело
##ходят
делом
мегвин
черное
входа
ехать
толку
##ьные
мгновении
побежал
слышать
эльфам
нуменора
сильныи
снял
##звал
##овыи
##тел
встала
ловко
сделаю
##няли
##пе
##сок
взяла
дворе
попасть
прошла
тишине
шириам
эльфииские
##лением
##ур
видя
вовремя
наверху
смогли
стране
##аем
##нел
##чила
волосами
мордора
народу
##анныи
##вав
##рик
деиствовать
буркнул
клянусь
троллоков
успела
##дия
##нях
##полз
##чении
##щает
вели
золото
##бросил
##шнего
##овали
лестницы
поблизости
##ово
##стои
книгу
мага
аиильцев
##зили
гортхауэр
землях
оставили
##ведет
##лее
настоящии
узнали
##лан
##ленными
##тями
##чками
попросил
посмотрим
##лена
гостеи
готова
сможешь
тома
##сами
##стым
вспомнить
копии
кровати
мастера
троллоки
##чкои
##щал
чувствовала
слудиг
ухо
фаразон
##гон
##енное
##нт
длинными
королеи
твоим
##довал
##нутые
##чиков
дверью
назвать
покинул
сможем
##вого
##еда
высоких
дел
каждом
очереднои
тор
##истои
##пит
всяких
продолжали
вела
любит
удивительно
эонвэ
##еру
##стях
больших
выхода
джулои
сапоги
добрались
песню
сперва
##вод
##льныи
##пили
прошептала
рухнул
фон
хватило
эолер
волк
кусок
недолго
полагаю
смотрит
##вол
##зии
##сот
маленькая
месяц
моем
плаща
путников
ходу
хранительницы
##бирая
##стую
зеленые
нашим
##еры
вашеи
взглянуть
встретил
листья
помнишь
##вшеи
##тке
огромная
поднять
поначалу
потянулся
ушла
##несли
##стых
ваших
держаться
простои
путешествие
трисс
##гнал
##держался
##нутыи
ветви
волны
выпрямился
двереи
кругом
##женная
##тились
##тку
##яют
молнии
остановил
позволил
сомнении
##гли
##крывал
видимому
подошла
фоне
##ители
любом
первую
чьи
большеи
спутников
тепло
фыркнул
##ею
##кнуть
##шился
глянул
приити
путем
течение
##ара
##крывали
глядел
змея
окно
##отои
подобного
середине
устало
изменилось
подобное
стремительно
##шних
понадобится
##дир
##хнулась
##ходя
##ченных
убили
##рнул
##ходить
гости
заметить
знания
проход
седло
стоя
##вэ
##исто
##нием
##реи
доспехи
мол
наблюдал
облик
##ехать
##нешь
##тия
##хватил
бояться
выходит
лбу
самим
удары
##дин
##зи
##лая
##ос
##ход
##щенныи
дрожь
другими
каменныи
называют
тролли
##ителеи
##овую
##ран
##ступ
двоих
дне
показать
присутствие
факел
##оры
каждое
возьми
востока
закон
ночнои
письмо
птиц
##вшая
бросить
волна
кольцом
неплохо
##щали
рассказывать
##оде
##ставляет
бесшумно
мрака
покинуть
ребенка
юга
##жается
##зилась
##кт
##лями
встали
дождя
непременно
тиамак
##гала
##ливыи
##лины
##ствие
моргот
поводья
смысла
теми
юношу
##вели
##знои
##нуло
дурак
поводу
радость
##держивать
##няв
##прыгнул
##учить
новых
тер
##петь
##ьнои
##як
гибели
мертвых
первое
сообщил
##надцать
белое
желая
неделю
отвечал
десяти
крылья
##ища
##рец
любви
свету
считает
##дке
##имет
##ливым
##читал
##щество
повезло
сумеет
шире
##ваешь
##еса
вне
ничуть
пыли
справиться
удивлением
шаннары
##ению
##лина
живым
щит
##жих
##ьным
ветром
имена
каменных
недели
пяти
станут
траве
улице
шлем
##енна
##ицу
##нись
##нье
##ющими
бог
вслух
пальцев
перрину
предстоит
силе
учитель
##кнулись
##ходящее
##чена
обеих
реичел
сестра
##до
##кли
##оту
##сали
##ющую
заклинания
скажет
бросились
маленькои
обещал
рассвета
серого
##думал
##дут
##ставив
##читься
владыки
знаком
маленького
хорошии
##бка
##зок
##оваться
##тельныи
копыт
небу
покинули
явился
яростно
##вшиися
##лит
##мет
##пели
##тели
всякого
нашу
сияние
сотен
##арь
##вато
##пился
##рения
##шался
событии
##гнали
##шли
холоднои
холодным
##телеи
арды
головами
желания
жители
корабли
ребенок
точнее
##казать
##тила
##чаю
##шками
поисках
##бирать
##гард
##ельныи
##крывать
##оже
искал
телом
узнает
##полнил
##рис
плечу
разных
##аися
##рав
будете
высокого
намо
новое
ощущал
##иях
##нимал
##овался
##тра
##усь
##ьи
новости
облака
песня
помолчал
##жена
##живать
##сои
дворец
змеи
киан
наоборот
погибли
темным
ярость
##рта
##ько
камнями
##дии
##зе
##ронил
##тих
##ческого
##шнеи
##щиися
герои
находился
остановиться
открыть
сознания
троллеи
##давать
##даться
##жными
##зким
##иск
выход
мечами
назвал
пот
странным
##браться
##ода
ждут
настоящему
столу
усталость
##ея
##сились
ага
остальным
старые
товарищеи
шаги
##винул
##щался
висел
выбраться
девять
оказывается
столе
широкии
##внои
##нном
##хватив
##шат
громче
положение
##бились
##иц
##рительно
##шнее
мыслеи
надеяться
некоторых
позволить
серебрянои
##вился
##ук
темная
улицы
##мен
##ьная
воити
##бые
##вшиеся
##имо
плотно
##ьт
еды
каждая
моста
поверхности
##рю
вернулась
нуменор
судьбу
##иков
##шении
мелькора
меррили
озеро
остановилась
планы
##ерно
##оды
огромнои
##истые
##си
##ян
вышло
девушке
кадрах
новои
поверх
причина
сказано
##жнеи
##лавно
##ногим
##тие
труда
##рами
##ске
##чается
направлении
оставались
первая
полныи
поставил
сэма
коснулся
отряды
поверхность
преиратс
слух
юноши
##вании
##рада
##снуться
##стныи
тенеи
черную
капюшон
красные
называется
поход
пояса
ростом
##говор
##енои
##чание
вышла
драконов
моргенс
шагах
элл
##ними
еду
кубок
отступил
скал
страну
черном
элаида
##ику
жена
краснои
мест
серои
ходить
##вое
##деи
##ляясь
##рушить
древних
умрет
человеку
##мел
##нились
##пнул
##тили
##фу
глазам
поднимались
последних
радостно
тоном
тяжелые
##ставит
весело
незаметно
посмотри
##авших
##ально
##зку
##рение
##тами
##щен
большое
встретились
гостиницы
густои
огляделся
##дов
##хнул
большее
единственное
поморщился
цвет
частью
##гнулся
##чьеи
костеи
##бит
ежели
князя
##ливая
##пления
##рнои
марет
надолго
подхватил
разница
старои
##бежала
##глядывал
##диться
##нели
##чиво
вопросов
деревне
лодки
обращая
помог
появилось
хватает
шепотом
##окии
##по
##пуская
##рону
##чью
гул
полном
пошла
щеки
##вела
##зка
##льные
##таться
вторая
углу
##нении
##стные
выдохнул
позвал
получается
феанора
##вет
ведьмака
спины
эльфииских
##ически
##ступать
ножен
свободу
##бан
##крытыи
выбрал
милорд
плащи
##еро
##ленного
##нс
##тят
объяснил
сидит
стражеи
##ленно
##нали
##пись
##ряд
друзьям
захотелось
наидется
нигде
понимать
превратился
сохранить
##из
##несся
##ступали
второго
равнине
события
черт
югу
##ражения
видение
восемь
момента
моргона
##аль
##зить
##зные
##снуть
##теля
##чее
замке
ныне
показался
пыталась
расстоянии
сомневаюсь
ударом
холм
##ненно
##ствовали
каждую
остальное
##аите
##зки
##ивали
##летели
##лл
##чески
значения
недалеко
##зни
остров
просил
факелов
##жаться
##нимали
##сек
боги
взяли
друзьями
звали
королевы
честно
##бь
черепа
##вшим
##ческое
взором
клятву
наполовину
плечах
старше
уверенно
угол
узнала
##ден
##жется
##лели
##сная
миром
напрасно
принялась
стук
##оне
##щиков
гору
невероятно
ногои
тропа
##евать
##зывали
##ленное
##летела
##шнои
великая
доктор
исчезло
какими
пламенем
##инг
##люсь
##щаться
поимал
##яния
глухо
отчаянии
принялись
прочих
собрался
##рвался
благодарю
мечеи
подняв
собираюсь
##ед
##ялась
сарумана
торина
трава
##дун
##ент
##лали
##раться
##тягивая
##шко
вход
границы
обеими
широкои
##асти
##дным
##жества
вои
защитить
падали
##влечь
##ике
##ленную
##мся
##рели
##ческая
##шив
веревку
долинец
лезвие
простите
##ждая
##нения
варорцы
духа
ужин
##ворить
##иями
##рота
##сна
##ственныи
верил
означает
побольше
силами
товарищи
##вому
##шные
гибель
говорите
делают
желает
изменить
имеют
оин
отдать
рандом
руарк
смогут
##дник
##ителем
##тного
##уд
дому
капли
словам
такка
удивление
##вила
##жины
##ором
##силась
догадался
зеленыи
мощь
причины
прыгнул
сверкали
собирается
троих
##лик
##нании
##рить
##рую
##ственную
##тое
##ческим
волков
дьюрек
золотые
кричал
линии
отвел
тяжелым
юныи
##держивая
##ешено
##ист
##лево
##ляли
звезд
риска
способны
##шили
боевои
виднелись
долгие
коглин
менион
пещеру
плаще
пола
##ита
##ппа
##рила
##тился
дабы
делаешь
иду
ровно
счет
##делся
##нимая
##ческои
дворца
местность
поднимался
постель
проидет
серебряныи
##гол
##женными
##очно
##рые
##щики
встретить
имеешь
ожидая
подтвердил
разговаривать
флик
хрипло
##дан
##дель
##ьем
знамя
лучников
счастью
траву
услышав
холода
##крытую
##ох
работать
трон
тумане
##ождении
##пускать
##ражении
мосту
обратил
последняя
поспешил
примеру
##водили
##дался
##ивать
##иты
##нала
##разить
##тер
##шались
##щенные
алланона
нужды
принесли
##отно
##яние
вещеи
здорово
изменился
колонны
менестрель
мысленно
объявил
огромное
происходило
расстояние
##аюсь
##бные
##вшихся
##ег
##ест
##жник
обязан
поясе
реиневана
увы
##лон
##рались
аран
выглядела
имела
слабыи
штаны
##бежали
##бов
##лужил
##шало
абсолютно
глубокии
скрылся
спутники
##нимать
##просить
##сился
##ьд
горько
золота
получится
шло
##став
##сят
##тыми
незнакомец
необходимости
подобные
скрыть
##жное
##нутся
##пь
##стным
дочери
путешествия
рта
ужасе
##быть
##ждает
##овы
##пила
##стных
##устые
врагом
длиннои
духов
кожа
свободно
##жусь
##зои
волшебник
плеча
сражения
тонкие
##ано
##зным
##крыт
##лку
##ложила
##рм
воспользоваться
горами
дольше
именем
находились
сталь
##енную
##жем
##зких
веревки
господина
смертью
удовольствием
##крытыми
##править
##рвались
##шала
видите
древние
играть
командир
кресло
саидин
следов
страхом
твоем
умеет
ущелья
##зных
##истыи
##нники
##нства
##питься
##рез
##тянуть
##уха
асмодиан
глубже
гора
двигался
сделает
тридцать
убедить
шумми
##сты
##ченная
##ьного
печально
понимала
смертных
снизу
собаки
##ван
##линои
##нд
##чами
десятка
добавила
звука
концу
ненадолго
покое
##фы
валаров
долгии
лодку
начать
отпустил
##тям
##ящую
добро
нашем
считают
##имои
##ителя
##око
##таи
грязи
повелителя
самсон
угрюмо
##снои
бинабика
валар
двуречье
девушек
иомер
магию
последовал
сухо
##жено
##рки
##стать
##ушке
основном
рассвете
серых
смеагорл
##ливые
##ывают
заросли
изредка
ономори
оттого
проверить
продолжать
становился
стояло
сунул
##ивает
##полнить
##чишь
##ющихся
вернусь
долгое
заставила
зеркало
пещере
просить
пятьдесят
спустились
темное
##жина
любят
ненависть
ножны
огни
снов
##хом
##чаино
вырвался
высоким
настроение
слуга
##лыми
##ляется
##реть
##ус
месту
полдень
топот
##вую
##мотал
##роды
##ывали
миру
незачем
пить
скореи
снега
хлеба
чести
##дачу
##жают
##ложив
##ола
##стая
колоброд
привести
сделано
##евая
##ковать
##льным
##махнулся
##нялся
##ходила
великих
гномам
достигли
имели
лана
молодых
надеясь
подарок
собственные
##ельным
##жив
##имым
драконы
кузнец
привык
солнцем
цветов
##вижу
##ули
безумие
выяснить
ехал
заговорила
луны
любое
намерен
недостаточно
ужасно
##носить
##рут
##чительно
каждому
неважно
передать
птица
финрода
##дения
##нику
##падет
##право
##шние
донесся
покоя
##жном
##ировать
##пки
##слушать
##ственного
бросила
высокая
голосов
давным
думали
заявила
кожи
короткии
огромного
северу
сомневался
##честве
##чится
белыми
вырваться
зеленои
падишар
похожи
##емои
##лас
##тилась
##честь
будучи
бэир
валона
взглянув
круга
подбородок
проще
разобраться
эхом
##жила
##крытым
##строил
##тар
##шла
##шне
##щеися
армию
коридору
правои
род
##крывала
##льнои
##неслись
##нников
##тная
##чнулся
делали
делу
единои
пропасть
считали
хотим
##воды
##волосая
##шины
выбора
горле
мэту
понимает
суждено
чародея
##давал
##дая
##жке
##идет
##няться
##рести
##тую
##чо
дала
денетор
лучи
перебил
толпы
услышали
##евшии
горлума
заметив
издалека
легкии
эхо
##пку
##сматривал
##щаясь
##щины
грохот
камне
мелиан
понимая
прощения
разговора
руско
сидя
случиться
цветы
чувств
##овая
##ращается
##решь
##рывая
##сматривать
##тии
##ущих
##шин
бывал
встретиться
давая
леснои
опустилась
отныне
разговоры
собирались
спустился
стоят
тысячу
усталости
##беремся
##жден
##мым
##ьник
вернее
вечеру
звезда
молчали
собственного
##аин
##выми
##емые
##учил
долина
инои
началось
призрак
широким
##зная
##ложили
##лях
##ура
##ченного
##шенных
##шныи
жителеи
началась
плеч
правителя
тянулись
##ене
##енными
##ставая
##стань
##тала
##щаю
видать
острова
усилием
ушах
хвост
чеи
читать
##рда
видения
впечатление
народов
неуверенно
сражались
тишину
числе
эпохи
##вин
##оши
бэггинс
отчаяние
половину
прошипел
рявкнул
собственно
шаидо
##ви
##зад
##рии
##род
##сит
##тнои
##ченными
выдержал
гордо
добрался
радостью
следующее
смогла
страна
цепь
##ваются
##дам
##лки
##правиться
##ственные
дев
ждала
связь
считая
хорошего
##ательно
##бора
##иму
##лам
королевство
определить
отон
северо
удивления
##кончить
##шком
##ьеи
вала
везде
единственным
левои
подняли
сад
##знуть
##кинув
##роза
##саясь
##шенным
слантер
увидит
ярон
##ающего
##овала
главе
замечал
краем
пива
умолк
хлеб
является
##кнуло
##мин
##рившись
##ругу
##сотои
##тащить
вашим
захочет
криком
сапог
чувствовать
##ента
##ично
##кло
##нам
##нили
##сии
##ука
##чивать
##чному
краине
послушаи
тенью
черты
##говорил
##жнего
##кинулся
##рваться
##шится
выидет
иного
неужто
правде
приходит
следовать
строи
таины
##анное
##бке
##дается
##зныи
##строили
##улась
##ческую
атаку
вспыхнул
держали
становились
темными
##жаи
##нешься
##ставить
##стья
##тор
красного
телу
шар
##ард
##ставляли
аст
кожу
крепче
кулаком
надежду
сестры
##помнить
открыла
попали
севернои
##нг
##ождение
##шены
выглядит
глубины
доверять
комната
непонятно
одеяло
подниматься
пределы
рев
склоне
следить
солнечныи
спорить
##вающии
##вольно
##ражение
##шалась
##щены
##щуюся
##яется
##яясь
грязь
зверя
зеленого
избавиться
пота
прочие
склоны
##иле
##ливаясь
##носил
##ьную
валары
вздрогнула
воротами
джуилин
зеленых
клана
лед
ловушку
ножом
рукав
сильным
##вно
##гор
##нутои
##ченное
##эн
губ
двадцати
застыл
легким
предупредить
сжимая
твердыни
тон
улицу
##нур
##оном
##ченнои
##ьше
андер
весть
золотых
лесом
наидет
палатки
пропал
решился
##бросить
##емились
##идут
##ильно
##рвать
##ьбои
взялся
голубые
женщине
куски
ори
пустои
старая
удача
##вами
##гивал
##оны
##ребовал
галад
книга
компании
копьями
пасть
потеряли
чародеика
чудо
эгинин
##дела
##падали
##пение
зрения
кулак
народом
переглянулись
случалось
собственных
сравнению
##истым
##нкои
##тными
##уры
беззвучно
вдобавок
гавани
гутвульф
лично
нисколько
одиночку
прекрасныи
##вилась
##нор
##ыбы
гномами
естественно
называть
новую
терять
##жег
##жишь
##нимает
##ового
##тора
бороду
братьев
грустно
длинным
забыли
смотрите
юго
##вязать
##далась
##днои
##женного
##жину
##жкои
##сен
##станет
##циеи
##читать
вдали
зубов
миновали
половина
тише
##бери
##гам
##ившии
##пыт
великое
курумо
лестница
натка
поступить
серая
счастье
ходил
##говорить
##ительныи
##няла
ветвеи
собрать
##душно
##знь
##крыта
##лнения
##сался
##ьнеи
вынужден
дно
песок
роль
священник
##авшии
##ведя
##ликов
##менил
##нина
##нник
##рачныи
злои
плечом
увидишь
##вязал
##глядеть
##гыр
востоку
грубо
губами
нею
потоки
уходит
##держит
##ливались
##мыи
##нит
дает
двора
демоны
нервно
перевел
петь
последнюю
принадлежит
прозвучал
##жде
##живает
##овныи
взглядами
всякие
колесо
маленьких
решить
старшии
##вязи
##менты
##нак
##поминать
новая
обнаружили
секунд
тролля
##анных
##ате
##влек
##дают
##дная
##крылась
##тет
аи
кинулся
последовали
решения
согласно
сотню
чья
шепот
##ерна
##женную
##левать
##лела
##руд
##щами
великие
лесах
огромных
острые
помоги
скале
ужасом
чары
##еешь
##раке
##тянув
бурин
господа
дыша
ладонью
одежде
орка
упали
хоббитании
хозяину
##бами
##бираются
##вка
##едро
##ери
##зиться
##иэн
##кнув
##ляла
##ненныи
##чилась
аж
ауле
морскои
отличие
поинтересовался
потолок
привет
раненых
ручеи
собственныи
создания
##атель
##дываться
##ледно
##ляю
##сать
##щались
драться
духом
отказался
отрядом
расскажи
факелы
цепи
эх
##алы
##вершить
##вные
##дар
##дачи
##дится
##инулись
##мара
##нится
##правится
##смотрел
ключ
красным
мильва
ожидании
пал
ряд
улыбаясь
##ешки
##рана
##роне
##стали
держала
друида
нашла
торонгил
##бирались
##днеи
##рывно
обращаясь
окон
прощаи
##жению
##ностью
##скользнул
##чило
##янныи
белую
кантака
луки
магов
провести
прошлом
сообразил
страшныи
хоббитом
##бро
##нному
##орию
##чают
белом
буря
дальнем
застонал
полно
противостоять
судорожно
чересчур
##поминая
##уло
##чник
##янные
##ящими
живы
исилдур
мордор
наверно
напасть
отчаяния
побежали
стрелами
##ане
##гарда
##енько
##кивая
##лено
##ожить
##равились
##стыми
брать
волка
качестве
носил
одеяла
поскорее
рыцари
толпу
феин
##есть
##кашлялся
##чам
великим
дошло
металла
рту
танчико
тропы
ударила
фигуру
##ладел
##пление
##цеи
выругался
деревню
единственная
желании
знание
носу
порождения
принимать
пробормотала
саидар
существ
теле
чашу
##зги
##лема
##лестели
##ставлял
##ставляя
избежать
легенды
сгореть
спали
старых
тихии
услышала
эрион
##ани
##ощи
##шами
##щества
вдвоем
делах
заново
изумленно
ком
лора
оставалась
подал
понятия
следа
убит
##бер
##вращение
##дец
##еют
##кнулась
##кнули
##пад
##саться
##ткои
##уда
##эля
ан
будущее
голубои
думая
отнюдь
палантир
топором
труднее
фабиан
##била
##вернулся
##метил
##сными
##сыпались
##щил
##ьце
вечера
грохотом
игры
обнял
обычаи
площади
пороге
похожии
степени
##даль
##очкои
##сив
##снее
##стоять
##хнулся
##ходиться
встреча
музыка
нелегко
отчетливо
попытаться
сведения
##альныи
##балась
##рям
##чаи
##ящая
живот
мясо
передал
плащом
пользоваться
роста
строго
##авшие
##дите
##жаясь
##зовался
##катился
##рачным
##шились
деиствия
держался
заодно
иные
листьев
судить
считаешь
##иди
##иеи
##кинула
##ступал
бурь
кончилось
легкои
монах
некуда
отошел
перевал
пытается
рождения
##ека
##жко
##мое
##нимается
##рвал
возник
геральта
кот
отцу
пояснил
проникнуть
равнины
села
сказки
стенам
##арин
##валось
##владеть
##еку
##жны
##медлил
##мом
##одные
##писи
##рачиваясь
##стоял
##фов
изнутри
кресла
молния
начинает
неловко
носа
омсворд
повернули
равновесие
рисковать
способна
уходили
##влялись
##вшую
##менить
##пела
##рыв
##шемся
##ьте
вином
выглядели
криками
сильные
шага
##грать
##дании
##жутся
##зилось
##зла
##зь
##крытои
##лагаю
##лики
##лила
##ненные
##пает
##покоить
##рала
##ставать
##шествии
борин
буквально
галопом
даром
ошибся
форве
##бив
##дон
##ино
##ливался
##помни
ахэ
боится
быстрыи
деиствует
дышать
куртку
мили
мяса
равнину
сном
темную
ткани
##дных
##ждении
##жья
##шных
ар
встретили
государя
даст
отвечать
поднимая
рыцаря
улыбку
широкие
эльфииского
##верил
##жимая
##зали
##ировал
##полнять
##стил
##торым
аккуратно
беда
давал
игра
корни
короче
ожидать
спит
##бивали
##блеи
##валилась
##жда
##пался
##щах
бо
заглянул
законы
искренне
испугался
клинка
принести
слез
старым
уверенность
##бавить
##бая
##елые
##живал
##лика
##поминал
##пустили
##сец
##сном
##чав
##численных
##ющиеся
боку
губам
жара
жены
наблюдая
платья
подождать
рана
специально
странная
шеи
##бирал
##вить
##леск
##нуты
##ранять
##ружили
горн
игру
коридора
мелэин
ногам
тира
##бным
##кс
##тах
болью
воскликнула
глоток
мыслями
открылась
согласен
тано
твареи
языки
##анно
##живая
##ору
##очке
##ходящего
предводитель
тропе
##бное
##вырнул
##довали
##жды
##крыла
##нему
##нила
##оити
##пныи
##пые
##ставлять
##чьих
блеск
врагу
двенадцать
дверях
древнии
камню
копьем
лучники
наместник
неохотно
получше
приказу
серым
языка
##бного
##вар
##меяться
##ою
##ствующих
##хе
горел
какому
отношение
очертания
пешком
попробовать
сердцем
уселся
ярче
##гана
##зти
##илл
##меялись
##мчался
##сила
##тья
##шеннои
встречу
длинных
животных
попыталась
приказы
рон
сигнал
спокоиствие
считаю
травои
##ающим
##волосыи
##ждался
##нике
##овыми
##сто
##чалось
выбирать
главным
глубокои
металл
общего
прямои
спускаться
узор
##анда
##бар
##дует
##еги
##иса
##ищ
##лилась
##пилась
##тях
большими
выходу
кровать
лиг
мальчика
пели
смутно
течению
уловил
фыркнула
##анна
##воль
##гах
##зкая
##садил
боися
всадника
гарет
дорог
думаи
заранее
любую
маия
нолдоров
тонкии
тремя
##анием
##дились
##зан
##стив
##тирая
знаки
кончится
муж
подумаи
предстояло
собиралась
##бьет
##ваем
##висла
##лла
##нду
##тана
##шалось
начале
пиво
хранительниц
##аты
##дцати
##евшие
##рев
##рочно
вершину
гондор
женщинои
коснулась
кулаки
направились
невесть
орками
первыми
послать
пятно
##рима
##ственная
##стье
##шина
берену
валон
возвращения
вскричал
зверь
источник
корабля
облегчением
прислушиваясь
собрал
спуститься
##гаться
##ени
##лание
##мент
##стит
белоплащники
биться
границе
колец
легкие
луга
ранен
снегу
часы
##ашки
##иды
##ителю
##лами
##ложения
##об
дулгухау
насквозь
таков
ян
##вер
##жденных
##зненно
##лии
##ога
##отать
##пешил
##рова
##стом
##ьда
вторую
дворце
желал
испуганно
маленькую
марки
мужчину
немногие
порог
пустоту
рекои
стрелои
усилии
хм
##берет
##одных
##резал
##сс
##тался
беспокоино
высшеи
напряженно
настоящее
плоти
появится
сражение
судно
##куда
##перся
борт
века
иовин
милость
наидем
опустив
ручья
рыцареи
ткань
уходил
хмыкнул
##вшее
##глядывался
##жь
##нимался
##рат
##рныи
денна
единыи
кресле
любопытством
наступила
ненависти
острыи
отцом
попытки
спас
станешь
##еря
##ечные
##жалась
##лянул
##скакал
выхватил
достиг
заставило
звон
ложь
надеждои
нежно
пределами
протянула
чудовища
элронда
##бли
##прашивать
##рандир
##тельным
##чия
желаю
карты
##ающеи
##бегали
##дишь
##дныи
##зовал
##кает
##льных
##ставал
##щика
зрелище
лист
следил
сорок
тяжесть
читал
##водит
##енны
##части
##шиваться
##щегося
возникла
идите
ингтар
источника
крикнула
левую
оборвал
повозки
поимать
решать
северных
спокоиным
энты
##влялся
##див
##жавшись
##ставляют
##стает
##тывая
##шимися
длинная
живого
знакомыи
исключением
краях
могучии
наиду
особо
потребуется
рост
##брался
##емая
##жало
##жна
##лебался
##лыть
##праве
##тав
##тво
##щимся
варда
вашу
глухои
десяток
дул
искры
красная
охотник
прижал
раздраженно
спрятаться
удовольствие
##ерныи
##жок
##нялись
##овным
ветки
гарт
гэндальфу
зашагал
исключительно
мальчишки
месяца
наготове
плече
показались
среднеземье
хорошая
##ателеи
##валились
##едра
##зано
##ружилась
вдвое
книге
ледянои
несколькими
носить
риммер
роднои
смущенно
ударить
##ама
##билась
##бьют
##ева
##ерлин
##ином
##крытых
##лину
##нутым
##огои
##ожиться
глазом
году
железнои
живое
маиар
победить
прекрасная
произоидет
холодная
##бались
##водила
##гивали
##дых
##никах
##риться
вглядываясь
горбун
лоиала
образ
растерянно
рукояти
усилия
целью
##ливать
##лужит
##окую
##рока
##скивая
##шедших
владения
врат
давали
епископ
имело
лесов
спрашивал
ушеи
шончан
##верно
##дели
##ерет
##лег
##лялась
##писал
##сады
##ув
##чаться
##чках
##шаться
##шивался
##щныи
##ъехали
всякои
молчании
поверил
правую
приняли
шанс
##вигаясь
##гар
##женное
##ившиися
##кты
##лах
##мана
##окои
##уще
доводилось
надел
направление
оберик
склон
склонился
##вернувшись
##дину
##зг
##здал
##лине
##рена
##чешь
##яне
беспокоиство
возникло
думают
крыши
оглядываясь
отношения
страшное
тонкои
узкои
указывая
чужои
##бирался
##етров
##жечь
##нен
##фин
арагорна
добычу
желтые
колен
моргенса
мудрость
огромную
серебром
собираясь
трубку
уидет
##вающие
##дня
##елом
##лело
##сное
##чились
##явления
##яные
воистину
главныи
заката
маэдрос
око
поднес
проходили
стражу
стул
ходили
##ательство
##выл
##гаешь
##держивал
##жание
##жгли
##жило
##зную
##неля
##ращать
##рные
варорец
девчонка
десятков
костров
нес
оставь
победу
похожие
проклятыи
сударь
узел
##бная
##жбы
##ждем
##лавнои
##оченно
##резать
##шедшии
били
вырвалось
доброи
железо
обернулась
пашка
подожди
пользу
помогать
снять
схватился
схватить
хлопнул
##анного
##женно
##зными
##ствовала
##сту
##цепился
единственнои
имеем
кричали
темнота
умел
хозяином
##анная
##брать
##винуться
##гадки
##давали
##ельство
##пами
##покоися
##раися
анвал
битву
важное
выступил
гавин
гость
густо
недель
песнь
показалась
понимаете
прошлое
сжала
слава
ульмо
чудом
языком
##вернулась
##ренныи
##сечь
##соту
##спокоился
наблюдать
нападения
нашему
погода
положив
снегом
тори
##снулись
##угу
залу
испытывал
легенд
лучшии
освободить
получили
сколь
сумерки
терпеливо
##аннои
##буждения
##веди
##зкими
##лке
##ребует
##слушался
##тности
грозит
денег
направил
подобных
потерять
предложение
придумать
целую
##брые
##жливо
##мещение
##нком
##ушкои
##ычным
вызов
дара
кружку
острове
признался
разговоров
стражников
##адать
##вия
##дев
##елю
##ечных
##казание
##руды
##рыва
##ящее
баккан
веки
вкус
высоты
гром
научиться
путешественники
силен
сознании
сыном
##енок
##ещал
##ждают
##ице
##ич
##суждать
замуж
крагген
рану
союз
форму
##вязали
##десят
##ельные
##ивно
##кивали
##нец
##ппы
##ъем
##ъехал
заставили
лагере
магическои
мертвые
оглядел
одолеть
паранор
переспросил
сделав
цитадели
##гнувшись
##дина
##иан
##ковал
##пределенно
##ралась
##ратиться
##ратно
##снувшись
западу
основания
представлял
ступени
ступеням
толпе
##чивались
##ыскал
белоплащников
вреда
задача
оставшиеся
повернуть
понравилось
пустыне
сесть
стражники
убежать
##дона
##дую
##крытие
##лью
##мертные
##обрал
##оги
##падает
##писать
##рением
##ющиися
аиил
видны
ласково
отвести
пение
святого
сдается
сухои
хоббитам
##ары
##ации
##бежать
##глядывали
##гнув
##знал
##зыи
##имыи
##исло
##образить
##ственников
##стояния
##хватить
##хов
##чивал
##чика
боятся
вашему
дрожал
захватить
молодого
напали
ои
поверь
поднималась
помнить
потянул
предков
таину
ударили
хеистен
щиты
элиаса
##был
##дора
##ежно
##ельная
##ерых
##жаются
##мели
##несла
##хватили
глупость
дождем
маленьким
продолжая
прошлого
скользнул
славу
сумели
такому
##вигалась
##дника
##зное
##итов
##рит
##тив
##улся
##шена
барахира
зима
иное
ищет
нетерпеливо
перешел
практически
присел
различить
узнаю
##берется
##бности
##брав
##звать
##знать
##носит
##просто
##сматривая
##стоит
##шивал
бывают
видят
маршал
молодые
победы
попадались
рассмеялась
сумерках
устали
факт
хозяика
##грин
##ечныи
##лились
##рама
##раст
##слы
##ставали
##ставлю
##ченную
адиту
ангриал
вмешался
выкрикнул
любая
маги
натянул
отлично
способность
стиснул
шепнул
эльфиискои
##ваюсь
##гона
##зив
##инки
##каз
##ственнои
##ступает
##учение
валинор
жар
надеялась
поидешь
привыкли
рванулся
церкви
##биты
##вь
##давался
##дернул
##елил
##ошли
##рилось
##щаяся
##щенных
малеишего
обычныи
приближались
тревоги
ударов
холодные
##ждаться
##живали
##мина
##носили
##ступил
##фина
##яи
бороться
говорится
делаи
драконом
древнеи
думаете
заговорить
защищать
звездами
лучшие
милях
мэтом
огромным
поднимаясь
прошлои
рассеянно
способности
судьбе
счастья
трубы
убиица
уолкера
упрямо
##веду
##граду
##дре
##жности
##истых
##ичеи
##крытия
##нин
##орца
##пкии
##рела
##руга
##руги
##секли
##ушку
##чков
воспоминании
дебори
держит
доброго
ели
изрядно
каменного
напомнил
пепел
полон
сокровище
убитых
юноше
##вие
##дилась
##жак
##онд
##орн
##рия
##скочить
##тта
##уясь
##ятои
благородныи
вида
вскрикнул
забыв
залы
заняться
кусты
кучу
нынче
положила
расскажу
секунды
скажем
спастись
спрашивать
старались
улыбался
ульбар
##бара
##думывая
##жбе
##каи
##кивал
##ошла
##пания
##плыл
##родои
##шилась
братом
дори
каменным
относительно
превратились
разглядел
светло
сумела
убедиться
##ительным
##равилась
##ржи
##сах
##чало
##шила
богов
взмахнул
вопль
мелкие
настал
нить
отрезал
позволит
стрелять
управлять
четко
##ворения
##далеке
##елых
##зительно
##ляют
##нив
##расную
##сили
##устым
##шают
вплотную
врасплох
грани
добиться
лучиэнь
называл
похожее
признать
пятна
слабым
тревожно
упорно
широкая
##ватки
##жденные
##жимал
##казания
##нают
##ратил
##спев
##шивая
##шним
малыша
недоверчиво
плоть
подле
поидут
потери
приблизился
пустота
росли
суть
##ботиться
##брали
##вным
##ельства
##лушал
##нности
##овалась
##пасть
##пившись
##пыи
##ращались
##ственных
##ума
##чивается
валинора
встрече
глубь
дошли
жалко
зимы
искусство
луч
отступили
перестали
поглядел
противник
талисман
уме
щель
##вшими
##еде
##елен
##ером
##рку
##тную
##тором
##утки
вызвать
вытер
далее
кошка
лодка
мыслях
нести
нолдор
принято
размышлял
рукава
саду
спрашиваю
старалась
тревога
##бальд
##бство
##ета
##нность
##рошу
##следить
##тник
##щер
##ыскать
временами
значение
повторила
приходил
пробурчал
слыхал
удивлению
энтов
##ворение
##елье
##идешь
##нскои
##овались
##пав
##правился
##спех
##строились
##тельные
##янул
вернемся
висели
городу
двинулась
дрожа
золотыми
красными
молодая
оживляющая
охота
повернувшись
погоди
пятнадцать
расхохотался
##вление
##ернул
##ившихся
##лт
##пкои
##рили
##тное
##чиваться
выбрать
выжить
высокими
заорал
интересом
мистер
мужа
нарушил
настоичиво
отношении
отправил
сообщить
тингола
тирит
умеют
шагал
##бегать
##бивал
##битыи
##елки
##зер
##имые
##ледовать
##лома
##пные
##шедшие
боицов
болота
большом
варорцев
вскинул
гаи
зависит
короли
лег
менестреля
несли
остальными
отступать
падал
привели
придут
проклятие
сражался
тэм
##вист
##ект
##лотныи
##мера
##нта
##рачных
##рства
##скивать
##тащил
заниматься
карту
королевского
костры
лавашка
ножа
подоити
сурово
улыбки
##вольте
##дцу
##енном
##няет
##ням
##ону
##пывая
##рных
##руге
##тянула
боишься
бури
ведут
веков
встречались
делаю
допустить
идея
красных
крыло
летели
месяцев
ока
приближался
разглядывая
разговаривали
рассвет
семьи
скакали
страшные
тревогу
федерации
холме
явились
##ада
##бных
##бра
##дались
##зия
##крылись
##лавы
##ляешь
##нулось
##ожным
##положение
##помнив
##снул
боевые
глубин
живые
ищут
меньшеи
молчания
опустила
призраки
рассчитывать
сотворил
##дуина
##его
##иэне
##ожных
##оки
##тье
балинор
волосах
гил
горам
гхолы
керниен
коне
копытами
кувшин
морэдаин
племени
свернул
уснул
ухмыльнулся
##везет
##волю
##енькое
##истого
##леты
##ованныи
##оз
##ращения
##рубил
##ряхнул
##щаются
##янои
вооруженных
второе
глубокие
исилдура
наедине
представления
прибыли
пропасти
тему
ходят
чувствует
##бых
##вершил
##видят
##волы
##держала
##кались
##надцати
##ною
##помнил
##пот
##рга
##чивался
##шатнулся
##щала
аргор
бросилась
забрать
имея
куртки
охотники
поперек
прорычал
разбили
создать
спрятал
творится
хмуро
##гас
##гло
##ерных
##ешает
##лавная
##мые
##нением
##няется
##праведливо
##рнувшись
##рство
##стие
##стрее
##уб
##хватило
ба
зелендил
подземелье
понадобилось
сказав
службу
смехом
##бала
##лле
##наем
##стны
##частныи
##шенного
##шную
##щания
башен
куладин
лежать
прибыл
прочим
собственным
страшнои
такова
тихим
трона
##инка
##истая
##менилась
##роде
##смотрелся
##тками
##ух
##шению
веснои
ветерок
восточнои
камнях
круто
лучшее
настоящая
ответы
пиппина
плен
престол
привела
серо
собака
тан
тир
щеке
##весил
##выше
##еды
##иски
##клонилась
##лушаю
##нора
##падение
##пкие
бесполезно
вопли
вторых
вырос
жезл
искали
лежало
лезть
макс
местности
наиболее
огне
прищурился
рассказывали
резкии
смертныи
сыну
точки
целиком
##виг
##дыи
##ип
##ительные
##кон
##остью
##пускал
##ственным
##тянулся
##шок
делала
дрожали
замерли
западнои
илуватара
полным
положено
случая
странных
тяжелои
##бана
##жут
##звали
##менную
##нете
##одил
##рдов
##ренно
##ринор
##чилось
##шенная
##щалась
авиенды
держась
дрогнул
погоню
помешать
рукам
сеть
сплюнул
##альные
##брил
##ерит
##ерь
##ждается
##зывало
##оча
велика
горных
гэндальфом
даэирет
даэрон
долю
жарко
звери
нуменорцы
обладает
отказаться
очереди
присоединился
пронзительно
свободен
трижды
ударами
уставились
##бою
##бью
##ведении
##гается
##дра
##ельнои
##лят
##мена
##троем
##ятыи
биинор
болдог
глядели
защиты
зрение
интересует
нехалления
огненнои
поглядывая
свалился
слышу
труп
##бах
##бивая
##гут
##зкую
##ицеи
##лопал
##рают
##рнуть
##уст
##шенно
андора
жест
зеленым
лба
научился
нежели
нравилось
понимали
поправил
приходили
связаны
скомандовал
темном
топора
трупы
фангорн
##ак
##вигались
##днем
##жье
##обрался
##овав
##орвать
##пасы
##чьего
быстрым
давать
доносился
здания
копыта
мириамели
морем
орлангур
помни
реинмар
спешить
сыновеи
телеги
ямы
##была
##валил
##вились
##емого
##летали
##лкнул
##ните
##пив
##пом
##стного
##хо
##ьна
боялись
веннидетта
взяв
диниван
добрых
долгого
запястье
мнение
огонек
ошибку
появление
пятидесяти
самих
##атели
##нание
##пец
##сеи
##стояние
##щеннои
##ывала
##ьки
большего
висела
волшебнои
вошла
многом
наступил
небрежно
оберика
оставляя
острие
попробовал
рассмотреть
страшная
страшного
шкуру
##альнои
##бку
##ведомо
##вется
##вшегося
##гони
##дилось
##ерх
##ключении
##лета
##мены
##наю
##оких
##олка
##отом
##пнула
##скочила
##сью
##уин
##чность
##явить
бормотал
бросив
великую
встретился
выпустил
жадно
запросто
злые
клятвы
лицах
локоть
наидут
начинается
особои
отбросил
послышались
потянулась
сверкающии
смеха
сокровища
третьего
узкии
##ванныи
##дывался
##зкои
##лнение
##лючения
##ляются
##правимся
##рла
##рожал
##ьцев
взгляде
виноват
границ
демонов
дернул
дорого
духи
зарычал
напоминал
низкии
особого
отправить
площадь
повернулись
сестер
схватили
туго
ум
фургон
щели
##влении
##вок
##гих
##глянуть
##едои
##звания
##зывала
##играл
##лужили
##нания
##нель
##пало
##пасен
##стная
##стр
##чую
##янии
беспомощно
вступил
выполнить
дико
доставить
кожеи
крыльями
напряжение
обращаться
опираясь
подозревал
предупредил
тускло
убежище
укрыться
умирать
##аров
##винулся
##ворот
##гур
##дым
##ессу
##завшись
##иние
##инок
##итись
##лад
##паться
##правляясь
##рвалась
##ренные
##рея
##ровали
##стнои
##ущии
##часа
##чиком
##ьны
##янных
волеи
громким
догадаться
древнего
знаи
красное
легкостью
находятся
открыто
пленников
присоединились
равин
разума
сети
скрылись
споткнулся
считала
цветами
##гивать
##дывал
##зило
##лка
##меров
##меялась
##ута
##чувствие
ган
гаул
глупости
горои
коридоре
наблюдали
облаков
обычного
пахло
превратилась
предмет
преодолеть
приветствую
родился
руны
уверены
##ари
##брала
##ведение
##вость
##гоняя
##одке
##оить
##пения
##раны
##ступая
##тывал
##ути
##щно
##эил
##яснилось
ару
беды
бремана
верен
воспоминание
всюду
детства
еда
зов
каменная
капитана
недовольно
новым
нужным
погладил
поставить
прикрыл
раздались
сбежал
семи
тяжелая
##ватил
##вучит
##дливо
##значение
##зя
##иста
##кнувшись
##лежал
##несло
##нившись
##носится
##рака
##реб
##спать
##ставили
##стен
##устыми
##хватился
##чению
##щимися
взялись
вспыхнули
выступили
героев
достать
захотел
кольце
лучших
обещание
правды
прекрасные
туннель
##аемся
##глы
##ечнои
##истое
##мелья
##ождал
##онт
##отал
##скакали
##скочили
##ставим
##фф
##чания
##эя
вождеи
восстановить
доспехах
забыла
обнаружить
посохом
смертельно
смеялся
столб
сыновья
тяжелое
холмах
##анным
##борн
##бросив
##вится
##жон
##зовались
##мером
##нница
##овки
##полагал
##пустим
##рг
##рип
##рутил
##тянуться
вздох
возраста
груз
дюжины
золотым
изорн
люк
нахмурилась
ребята
тире
уль
яркие
##бирает
##бкои
##брались
##венно
##икие
##нцы
##рман
##сного
##ьном
##ялось
бежала
вопреки
готово
долгих
лорды
морского
сдержать
среднеземья
удовольствия
устроить
форме
##ады
##алыи
##аря
##ечать
##жнии
##крывает
##лавного
##лучно
##мещения
##мотрят
##нат
##овил
##паи
##пят
##ранил
##рчал
##рывались
##ряс
##таки
##уг
##удрых
##ующего
##шои
бедныи
вожди
глядела
голубых
деиствие
издали
купец
медальон
пса
сверкнули
чувствуешь
##буи
##вающе
##дях
##еин
##жду
##здание
##крывается
##лез
##леснул
##нимала
##ракт
##сота
##статок
##тановилась
##тупление
##уга
##хрипел
##читывал
боясь
вод
герцога
добра
извини
когти
королевскои
костру
любить
мелькнула
многочисленные
нога
облако
пел
поесть
присутствии
проклятье
разбудил
странного
торопиться
узнав
устремился
шаннара
эльфииская
##анта
##беда
##ести
##зами
##иками
##линки
##литы
##ожные
##ош
##реннии
##сленные
##спеть
держались
домом
доносились
настороженно
начался
положении
предпринять
проем
сером
серую
собираешься
сожалению
стренгьярд
учиться
формы
##бую
##вных
##вственно
##грузился
##дны
##елся
##елями
##значало
##люд
##мешкои
##рета
##тницу
##убе
##чивыи
дворфы
делами
друиды
казаться
королевскии
кричать
кухне
любопытство
находилась
несет
нуменоре
обрадовался
огню
падения
парни
правил
присоединиться
пустоты
развернулся
рубашку
рыба
сделаешь
совете
тол
факела
шлема
южнои
##бираясь
##блемы
##видел
##инул
##лав
##осы
##пина
##пла
##рева
##рка
##рывался
##смысленно
##тве
##улись
владычица
встречал
горные
гхолов
делая
задолго
камарис
наидешь
отсутствие
посмотрели
признаться
причин
процедил
разобрать
секрет
спинами
страннои
##ашку
##вляются
##дами
##данных
##даст
##дуин
##дуна
##еет
##жию
##зала
##лезныи
##нутых
##тников
##чивым
##читаи
##шивались
##щаися
##щенное
##юк
бережно
возвращался
голод
древнее
кустов
молчать
начнет
обращал
объяснять
переход
половины
попала
прикосновение
пятеро
рассветом
узнаешь
умею
##брасывая
##вернуть
##вляется
##давая
##дкои
##должить
##зана
##зкое
##ивала
##ладеет
##ладко
##ледныи
##лезные
##ломки
##ненным
##ниеи
##олов
##равляя
##ражать
##расиво
##рянул
##рятать
##чаются
##чевать
##щные
##ык
вставил
гляди
долгои
заняты
картина
колеса
кольчугу
лука
любили
нашими
нити
похода
походил
слушая
смысле
спускались
фарамира
целая
##гивая
##жите
##коп
##мысел
##нья
##орю
##ошеи
##паснее
##плю
##рожденныи
##ронои
##росы
##яются
беспокоиться
вир
дано
длинную
доктора
дура
мрачные
насмешливо
неторопливо
оставлять
отдыха
подозрительно
собак
хорошее
четвертыи
##ватка
##вернув
##вец
##гновения
##говец
##говорим
##даи
##есла
##ждала
##нскии
##раснел
##рким
##рным
##рываясь
##ставшихся
##щают
возьму
женои
истинныи
написано
начнется
неприятно
полетели
постараюсь
поступил
потихоньку
принцессы
провели
развел
разговаривал
размахивая
родом
сели
строить
требовалось
##[
##]
##m
##n
##u
##ъ
